0194
0CF5
0470
00BA
0CD4
09F4
0909
0690
FC8B
F73C
FBAF
1672
EE74
FE7C
14A0
FC34
FC3B
FDA1
03A9
15C1
FC5D
1BF3
FB64
FE73
0642
00A7
FAD9
0FAD
0D58
0187
F901
FE8D
FEE6
0294
1906
0A6D
083F
0296
088B
0A59
F268
141F
0953
1BDF
23D8
1B8F
2A93
3153
16F0
2449
027A
FF6F
FA74
0CEE
F713
02BD
14DE
04D3
F7CC
02E7
0AE3
FC4B
3013
FB66
01A6
1F96
1715
08E7
0675
F024
005C
04BD
0542
1890
2053
F305
08BD
14A0
0B22
249F
1C10
F9D5
0EFF
F06C
F6E2
300D
1CE7
0C42
0A95
32D9
00C7
399A
0AA4
FAE8
01BB
2476
00F8
FDB4
F6B5
F64A
279C
084D
FEDD
F88E
31FA
F721
FB0F
2DA7
ECB1
02AD
249B
1158
FF7A
012C
06B4
0346
11ED
25D3
05D8
0807
0575
05D9
0086
233E
08CD
FAAB
F625
01CA
FC10
F85F
0DAB
38B1
03FC
2CDD
FF25
0738
17BA
2663
EF9D
399A
399A
399A
2FB8
399A
01D3
1827
F2D3
1354
F99D
258D
FE00
0094
2A46
FC76
FFEC
0733
3996
00C6
1A68
EC59
02CB
2BBA
FBED
0163
1547
FF6B
009A
F5B2
107A
2F79
34EF
19E3
399A
2B95
114A
36D5
2CA8
1ECD
128A
0400
1636
399A
2C5D
0008
2CAC
30A7
FC62
399A
1D54
FCB7
F288
FC04
07EC
F909
FE0A
0B63
F498
F879
FCBA
0410
1155
FBC0
F4E1
1681
08B4
FCB3
FC25
FC00
FCBB
0C09
FE56
37A1
FF2F
3911
FEA5
0272
FFF3
FC1D
F9FD
35C8
F9CF
F207
FB82
04B3
FC89
09B1
E30F
22EE
F681
24AB
F52B
F5CB
3007
3778
F74C
2158
090F
07C4
36B2
2BBB
3132
17A1
05EC
F4C7
0CBC
2BA4
FD5A
11AF
23AC
F78A
0166
365A
3766
CFCF
0535
0BD0
FAB2
3728
0938
3820
FDC0
FCBD
F89E
FD9A
01EB
24EF
2A7C
1775
DDBC
EFB6
0CDE
2A28
3460
1580
2C1B
0441
120A
1E25
F10A
0E5E
37DA
13DB
FF11
1C83
D38E
00CD
F895
DCF3
F927
23B3
F7E4
F610
EF53
E836
F95B
03E5
0C9B
0216
F744
3967
0737
046A
077A
C666
01CE
FF89
FE72
1F62
2677
C7A3
FE2C
F1F5
0885
F857
0723
EC60
C851
FDFE
F9A0
04AD
0269
FE0F
ED03
C720
10AA
3992
F040
FD65
C666
C6D0
020A
EDD1
35F9
1B5E
1A26
C93C
3354
FFF7
083D
D3F6
F6AF
36D4
0A23
01ED
E17D
F620
FEAD
C805
E8A6
2761
018C
14B1
FF43
ECBB
EF57
046C
221C
FFEA
05DB
06E2
F6F9
2A52
C702
160D
D4A1
EF5D
20DE
DC18
DD5C
CF22
FE65
10B8
CE66
0153
FC63
FA9D
C6DF
FAEE
FF32
DBD6
F6CF
F5C1
F9FF
C9C7
F8BF
399A
F93F
FBB4
F94F
1261
0582
FCAC
15E2
FBF9
03AE
EFE8
0D4D
F869
399A
21DA
FD81
049B
F5B3
1488
0F04
074D
F83C
160D
FD56
0119
005F
393D
2F6A
EB71
FABC
0146
FCF3
05D6
399A
0E0E
1331
F62D
F9B1
FDED
1E69
05C1
F81F
196F
31E7
E6A7
152E
117D
07D1
3471
FEEF
F1C2
F168
280F
FF8F
FC3E
DACA
0758
0555
3445
399A
1E70
FD6F
0157
07CA
FDEF
F0FB
36C8
2494
FBF0
FD94
FA43
F7C5
2CC9
076D
18E2
012C
176C
389B
F44D
14E1
0E88
24F6
2D58
09C0
2694
326C
F677
399A
2DD8
FEB9
3008
2F59
FE40
E4FC
2DF7
0ADC
F32A
FCA1
00A7
310F
F937
FB0F
FD9C
D068
0004
FA86
037B
030F
FB51
2414
F030
FE85
03F2
F7C8
CFC9
03B6
EC1E
F44A
F2C0
088A
0211
FFEF
1608
1A5C
FB17
FDFD
00FD
FC3B
FF15
EEDD
10D8
188A
E2DC
00CF
FF06
E3F0
EEAF
FADE
0F4E
F08C
0AC2
26D6
FDE9
D39D
F99E
0457
32DF
FF18
FD90
05A0
FE97
0FD0
0295
F813
C7BD
00C5
FEFB
23EE
01B9
0B0C
1F22
1075
C7D3
E34B
0097
0592
FC82
00E7
29F1
DD61
E08D
1861
C9DA
E770
2BD9
13C9
DED6
E34A
C97C
DBCF
F469
C7E4
02CC
0FB7
1B09
0C4D
3925
C70F
F90C
FA99
3748
00CF
C6F0
008A
FB39
DDE8
FA6C
FEF5
0267
C738
FA71
F9FC
0918
F732
047A
C770
C9CF
0040
F6DD
0399
360E
C6D5
C78D
F527
04CC
F7FC
F68B
FE66
399A
C761
0549
0179
056D
F6B2
FCD5
C761
C730
E5A4
399A
21E7
FAA3
DE1C
D3F1
034C
345D
30CA
D68C
399A
29D5
2345
C84A
0037
3265
01EF
2B56
F629
0039
0D52
0281
039E
C761
C8C3
0501
09DB
FCE3
F7F7
1533
0ED3
C73A
DBCA
F017
00BB
F73E
FCDA
320D
C756
C7D5
C7CB
C689
C6DF
114C
1670
D095
C7DA
C7B2
C7E8
399A
CA67
F63E
C829
399A
03B1
397E
C77A
024C
FEF5
3902
024B
C666
F88F
09B2
F078
C666
FFB2
0278
C6BF
F914
090A
DF05
0B56
FBCE
C6D0
C666
0356
02CA
FC36
CC35
C778
C6EF
0903
FC25
FDE9
072F
FED5
C7BE
C666
034E
EE91
FDD5
00FF
0125
C666
C6A6
F286
C7FA
FD30
FD6C
E1A8
C6A9
FD94
C79D
CE8C
EC39
C7D0
C77D
EFD1
C6FA
0349
F152
15D9
E81F
F5DE
05E3
C700
F959
FF4C
C6EF
C74E
06BF
DF5E
FB87
F39B
C804
E53B
C6A6
C666
09FE
0387
F2B7
FA06
C872
C6A6
C6FA
C7C5
C666
C666
1ED0
FE45
C666
C6FE
132F
05E6
C7A2
C6C5
0C8D
C6EF
C795
0303
C80B
C6C5
FDE3
0010
F4AE
F973
1B63
051E
0275
0BD1
176D
FD93
F793
3955
03E6
F8C6
2645
F3E6
F3FE
25C9
392F
FEC8
FDBD
FFAE
076C
FA22
3873
04E8
0824
F8B1
01A8
0576
2994
2EFC
F8CF
F70E
00B5
FAE6
062E
3689
37F0
F691
00F3
FDF1
FFF7
0723
291F
052C
2DC2
38CF
12F5
2F52
3173
0EAD
391B
07BA
F85C
0C21
EE15
FC95
F9D1
37CA
FB34
FF2A
399A
32B3
F8CD
1209
0699
F6DB
0B08
0476
188E
FB07
00CA
F922
0026
F976
0CDC
3876
147B
37B0
3958
3933
1706
3789
1F4E
399A
1AA6
337C
37AD
399A
0F87
38EE
37D1
0299
3737
3943
F37D
FCA5
06BE
02FE
170C
0832
06C3
08B9
10A3
FD9A
FD88
2393
F51B
FCCE
14DF
FF18
FE3D
2162
0DE0
FCF6
0656
FE67
214F
1199
21B5
01BC
007C
04B9
0137
FC81
32FC
0A9F
F957
F2F4
FB4A
0941
FC5B
2832
1C31
FF0A
3230
056C
F3DD
1BF1
0DD1
FEC4
2E64
15F5
1AB2
2D45
0E16
099F
3188
FC04
FDC2
0715
0CB2
F99F
0136
1F56
F795
F82C
20EC
3652
0845
0266
FFEB
F945
11E8
02B2
151D
0F53
119E
032E
F8C6
FE33
FDC0
1C41
216B
1CDC
10DB
2751
1634
2F30
07FF
215F
1817
F756
1E07
2BD7
FC74
173E
1726
FCC3
2DCB
1BF8
FE0B
FE63
0A34
EE64
0661
0543
FD7F
021E
1704
0255
FE20
0C91
FADE
FDD4
FD86
F29C
FAAC
15F3
05B8
FF7A
0230
0619
1660
0662
0AED
ED98
FEA5
007F
F7F3
01E2
02B9
0F7A
FDBF
02C1
F3EC
FCF6
FED2
0CA7
279A
F7C7
1B98
FE73
FE68
1558
1097
0155
1D84
00C3
093A
0CDF
1AB2
FEAB
1746
FF77
0264
FFD1
FC2C
F8B3
FB66
2A95
0298
0411
1EF7
FEC5
04B2
F874
FDAC
0147
1E6A
01E3
08D2
07E8
F567
0282
FDDD
F993
FFC3
1C6A
0695
165A
1CE4
0C81
1915
22B6
FF1D
1597
1079
0A80
00B5
238E
FF80
23C5
1D8E
018C
229B
169A
F968
0197
0572
F7ED
FEC9
031E
E9D9
0000
099B
FBEF
F4BB
12F4
F63A
FC60
F8FD
006A
FD71
00FB
0705
FF66
00A5
EF8A
07DD
F640
F4EF
0992
F63B
013F
FAA6
FB4D
103C
FEC2
0295
02A3
0811
FDAC
076A
14D8
1544
0284
0C57
157D
0F77
0344
095B
042C
09BC
0E41
0110
1243
0636
0565
14A0
0234
0302
05D7
108D
0880
029D
04FD
F786
0206
03C8
F79B
0574
FF94
02F3
FC10
1115
0262
0F86
05D7
0123
FCAF
0038
05B3
0A6C
FCD6
0BDF
03C6
0B69
0357
043D
0241
05EC
050F
00A6
FE76
0547
F7C7
049C
0AA0
01C4
F691
031F
10F6
0455
FDEB
03BE
F8C9
FE31
034A
FF56
FAEF
EC81
04A6
023E
F621
0429
FFE7
03E5
0674
FAE0
01C7
0167
0547
0CF0
04B9
03B1
0E72
F95A
FCCB
F926
FF4A
077F
08FE
0AF1
F743
FC2A
FBD2
069A
F9B8
05FD
FB5A
FF0C
0C0D
FF19
0BA5
F63C
FD1A
F346
FAD3
0BB7
0984
018F
04BA
FD63
F919
05E2
0956
FEF0
F707
FBF5
FB49
0AF2
01EA
F8CF
FBC7
FBB2
03A4
FA96
FC18
FE63
03A7
09A6
077E
FCAA
F61C
FA20
01F8
F6C3
01BE
0275
FCE6
0902
FDAE
098B
F9BD
1006
0A7D
ED4F
0158
0B0B
0686
01D3
FF09
F673
011D
ED38
F8FC
0952
FF6F
FD7B
FF44
1455
072C
FD79
0B8C
FF63
06D5
FA51
F981
058E
FC63
FA96
0638
FC96
F62A
03C7
F2B9
F60B
FD77
F849
F851
0782
05A2
FCAC
03AB
0A01
F71D
006D
0DB2
0C7A
0702
FE9D
FA79
07EC
0487
FFA5
FEA7
F4C6
029C
FF43
FE3A
04A6
0671
0659
0FA0
0D7F
0017
FE3E
12E1
01C8
00BB
0FB1
0BE2
FFC5
01A0
FC67
F9B5
FD78
02F2
FDC3
010E
133B
06E3
029D
0589
FECE
0890
0105
00F3
FA76
035B
00E4
0661
084C
0496
11FD
0CF5
0385
038F
F430
066A
047B
FCCD
FBDA
0BF7
FDE2
0C0A
0762
029B
FEE8
081F
F822
0E23
FDC2
FDA0
0875
0579
084D
095F
0BAA
F728
FCB9
05A1
01CF
F1C7
073C
1498
0A25
F8F3
0D71
F144
0BB5
FA6B
02AB
080E
08F2
0273
F4E7
069E
024A
028D
0620
0496
0EB3
0494
0713
11D1
FDD2
01F4
0141
F01D
01A1
09E7
032D
0492
FC3F
00DB
0A6A
FDFA
002E
FBCA
167F
FD96
0FAD
0DC1
1812
0A1D
08C7
F552
0F39
0981
FEAF
052A
FA74
FD8F
F4DA
0677
01B0
0FBF
0B9C
0F83
0495
0576
04A0
016A
FD76
FE67
FF41
075B
0E42
F8A3
0BED
03A5
0CED
0AF7
05B6
0035
09ED
0C4E
FE7B
198E
0381
FD6A
0FDD
060A
F66D
0CB6
1289
0E73
07DD
0D98
00EB
01F8
0B6E
05E7
05C3
F991
F836
FEE3
04D1
037C
056B
0B88
EF5A
0642
F8F2
07F8
0255
0687
F837
01F5
F310
079B
031D
EF0E
0BD1
0B9E
F9CC
0867
FACE
F04C
FDEE
029B
00ED
00B8
020E
0180
FE81
FC81
FF71
FCF9
02A1
F7B2
FC3E
02B6
04A4
FF8E
02A7
08E9
06A6
0891
F708
01CE
0C67
0392
04F5
01D9
F9F5
0878
F695
0931
FFE3
F5CC
FCC8
0F2B
FD54
F8A3
FE4B
FA53
F98D
05F7
0A3B
FD6C
03A1
FD52
FF4F
00DA
0DF4
0562
FAE7
02B2
FD2E
0150
FA77
00C3
00B1
043C
F732
F402
04C8
076E
0EB0
02C9
07A6
070D
FF26
01A9
FD06
0C4C
F60A
FFBA
0D93
FF41
FC0B
FEE3
0493
03EE
01F4
0736
068D
F855
FE6F
061D
0363
0277
0335
0699
FA0E
F780
FA41
0F2B
F8D6
FE60
FE90
0725
F3F5
FFBA
09F5
0738
02D6
FE31
0C2D
F46B
06CC
034F
0265
0377
065B
068C
F803
F949
00C1
005C
FFD0
0CF0
FD51
0AC5
00AF
13E4
F8F7
FC38
FEEF
090A
FBF6
0B7D
0B12
0391
0308
F538
FF96
F873
FDDB
03BE
FDD4
0693
0192
F675
FBE4
F9EA
FDCF
08A5
0381
0259
FB72
0F0A
029A
0EE6
F839
FEFA
1095
F7D3
0349
00ED
FC5B
0D81
F8EF
0761
077F
FB4F
EFEA
F3AA
F82B
011B
0253
FEB1
00F9
06B8
0C87
02A0
FBBA
04E3
035F
FAD2
FC01
0DA2
0CC9
FC54
F423
03F1
F9BE
0769
FB9C
0F72
00C7
0641
FC1D
F127
02A1
01D1
04AD
FC2A
F70D
F4E9
093E
03D7
F9EF
FC57
FAF4
F2DF
00E3
04E5
FEF4
F813
0551
091B
0EC2
0493
FE83
F23E
F9F6
05BA
0634
0CBF
023B
FA42
FB3D
0105
FC1D
086B
FA27
0BB0
FB62
FFEF
018C
FD9E
F28D
01C4
08F1
FCC3
F288
FEB1
02B9
F94C
033F
FFBE
FD2A
0121
04E5
0261
0A34
0D37
0D27
E91D
FBED
FAF8
FDAF
0661
0149
049E
0C37
F619
0359
0899
003D
FFE8
FAA0
058D
0314
043C
0221
00F0
F7D5
FDDC
0815
EA6C
053F
03D2
F891
FAD4
FE96
078C
FD69
0816
05E0
FA56
FCBC
016A
030E
04B6
FEF5
0109
03E6
0924
FA24
042D
F31D
0320
01C6
FFFF
F887
09EE
0639
002D
032E
F97E
038D
0A12
F6B9
1480
06A4
05AF
FA47
0698
FAA0
FB6F
068A
0606
0282
11A3
FB7F
FCDA
06C0
FC17
F9FE
010D
0289
0254
FFB9
FEEB
FF87
0717
095D
055B
F7C6
F8FB
F05F
F829
FFBB
0270
F907
0CED
06B3
08A0
FC72
01B1
FF55
0B24
FB2F
FC8B
0978
172A
01F6
02A8
F1B9
1284
0603
F3EF
0AFC
0BEC
FD6F
0222
04D9
0199
0846
0AE5
0844
0545
03B6
F725
F9B1
05AC
047C
042F
091E
FC29
03EA
FBF8
006F
0670
FCEE
0D59
07DB
0996
FDF9
F661
FB29
03D2
FF9D
06DD
018A
FBEA
0639
095D
FAED
038C
04DD
00BD
FF47
F752
09C4
F8C5
F9F8
05D5
0145
FB3A
FE8B
FEED
FCFB
04F4
F968
0284
0D37
073B
FCC1
0008
0344
FD5A
0A3B
F340
0D97
F1F8
02D9
F87F
05AF
FB09
F826
FDA5
FD23
F4DA
02FA
F318
07F9
FDD7
098D
FD11
FDF8
052E
FBF4
F547
FF66
F676
037F
0843
08C5
FF0A
FE71
FF01
FDC8
06FD
FFD1
007A
0270
F332
10D4
0847
F658
042B
F8CC
FC44
FBBC
08D2
F2B1
FD8B
F606
0036
FF1E
F641
09FA
0CE5
FED0
039E
FEF8
0594
0A9D
FE24
0F5D
FE01
FF5A
0C98
0503
F1EC
0131
F718
F544
FC86
0239
F849
F6E1
FD5E
02CE
FB2D
FAB9
F0D9
FA9F
05D9
06F1
0579
FEC9
00A4
05FF
FADA
08BC
F39B
04BA
FD2E
F8E3
055B
FE44
026B
1101
01EA
02D1
FC78
0AA9
F348
0D05
FE50
020B
F9CA
FEFE
074D
017A
F98A
FC5E
079B
FE38
05C7
03DE
0281
FD72
F368
07CE
0F89
F9F8
FF06
0962
0C14
0546
0746
09D0
FC86
F126
FC6A
07AD
0571
FEF9
0055
F659
F68C
02B2
FA70
FFE5
FFB0
FBD6
0F23
0491
0129
FECD
F5CA
0B3E
05E0
FC50
0197
FB59
02BF
F6B2
01DA
0A67
0318
FBE9
0695
0D84
0510
00AC
FA71
0305
0D51
F207
06C5
0106
0A7C
FF1D
F102
0DCC
F7F8
058B
FF1E
FFBA
00F4
FC38
014B
0222
058E
00DE
0235
0934
F9C0
007C
0350
072C
FF8F
00B0
FD9C
0898
FDC6
04BF
FF4B
0037
F787
0065
FFCB
F5B9
FADF
FCDB
F569
F791
0A2E
F8DD
FA11
F654
0881
065D
0234
0095
FC98
FE08
FB54
0490
04CC
0653
0E32
04E6
0465
06F4
F551
0008
F585
0AED
FC96
0C49
075B
FC2D
F480
F836
0732
FDC6
F5BD
FE71
0BBA
0B26
FCB9
0222
043F
F5C1
FC4F
FD31
02C7
FD9A
F652
023F
FAB3
F961
F783
FE75
0C2C
FECA
076F
F093
FA31
F749
FF7F
06A2
FC37
F761
0691
FA56
02C9
FBC8
0395
FD53
0582
044D
0F64
01BC
FA4F
F7F5
FBDD
029A
FB0E
0A61
034A
F8BB
FD9D
FCE0
0136
F8E5
08A2
FE5B
FE5B
0846
FD49
0056
0F18
0452
0292
FE2D
F91D
0D53
FEE9
0D9E
FB43
08B2
FEB8
02E3
086E
03AB
0722
F419
FE48
0E37
FE60
040E
FF00
FEA5
F68F
F81D
0BA8
FF74
F776
FBE2
058C
FB17
FAF5
F984
F97D
0D2A
0069
FE86
FE98
0543
00CF
02EF
02DF
FD89
FFD5
F38E
FC93
0F3E
F790
0008
0253
0902
126B
FD40
F9EC
0758
017A
0DE7
0506
FB5E
FEA3
02EE
0378
F825
F2AB
F4E4
0447
FEF0
F34A
FC2F
F294
FE2D
FA01
FC22
FF6A
0144
006A
08F3
10A3
05E7
FEB0
0536
FAF6
FA47
F9F7
0207
0895
0F69
092D
04D5
FB3B
0088
03C4
FF27
0CE8
FA52
FB0D
02A2
0DE7
F371
FA23
08EC
FB4C
0E44
FA4F
076E
FF64
032F
F8D3
F4DF
0560
FC55
F9A3
F858
F8C3
0960
F99C
FC3E
0DA0
FD01
FFF6
028C
FDF3
FB3C
08DC
0237
FBA4
F667
F7FB
F8E7
F110
0822
00B5
03B8
F62B
FCA4
FE56
0086
FE92
F760
0791
04EC
0085
0727
085F
09A8
0121
FDD2
FB64
38DB
FB24
F9AC
05D7
1CAA
0469
FA1E
34D6
0657
FCAD
22BD
F9A9
0A87
0042
C666
F577
01ED
FEAD
327E
3921
01F0
F4BD
F388
01BD
01A0
F96E
34FE
D20D
004F
04DB
FE17
FEF1
F083
CF99
E6DB
0181
36CB
F63E
F266
171D
2C84
FC83
37BE
37E9
3100
3934
2877
3888
363A
FC61
1A77
F9D1
359F
FC8F
00AD
E486
FB78
F5DD
F459
36F1
E445
393E
F48E
070D
3495
2390
3930
13CC
F463
01F8
ED9B
FC6A
390C
E93A
277C
F097
EA51
3801
20D2
2291
2475
2D54
1C75
0D54
3909
3730
0239
324C
DC42
FB56
2FE0
1029
0777
0488
FC72
0909
FF3C
FCDC
FA94
C755
2234
F8B5
FB42
D402
05FF
FBB2
1E8E
FFD0
F4EE
F5EB
03F1
FEE8
FA5E
FEBB
C6FF
20FC
C6F9
0635
019F
F797
F6BE
FFDB
1799
0C3E
02D7
087B
FF87
0098
FB85
3467
D400
1E5E
F9C2
F5CD
FF3D
D4B6
C695
FF07
34C0
2E3A
0654
156E
382D
F9D9
C70A
FA2A
328D
FB1E
220C
02CD
FA27
C78B
0025
FE8B
C705
0478
F4D3
3872
F9A5
FFB3
393E
C666
287A
3497
00F8
FD4B
00F2
FD50
37DE
C6E3
0BB6
E64C
0659
1849
3955
308B
D2C6
1220
FD1E
D09F
3442
2EEE
EFB6
15B6
340E
0337
F7E5
C6F1
F7BD
FFDD
24F6
FBF6
194F
017B
012F
2833
D19E
F9D0
FC76
0C1A
03F2
0231
336B
F846
0470
399A
012F
0D4A
F7C8
FD97
C862
18A5
D6D1
08D1
F553
F9B6
01C7
F762
1E1F
2C92
FE5C
FF08
F63E
FC31
08A5
1B87
F79C
399A
155D
FBDB
F206
D1A8
0DEB
FDBF
15EC
19C4
399A
2A7A
2EED
F4AF
F4BB
FFE6
3869
0A98
21C1
FB85
F578
2829
FBE7
FF83
DD05
15F6
E772
37DF
F68A
15CB
399A
0C61
0711
181C
F618
F718
01DB
FE79
399A
E39B
13F9
2D62
F38C
F2E6
3967
2AFC
14E8
FCEF
0E86
175C
3037
F757
058B
1D26
11F3
F71C
399A
FEC2
FCA6
FB8F
3937
FE66
E7BB
0475
0242
1965
1ACC
014B
F16E
E7AC
FB7A
0777
ECDB
F61D
FC3C
C693
FCDA
022F
05ED
0416
33C3
E439
0158
0A11
F55C
00DB
FC5C
F262
0BCF
C7BA
04C7
0C6C
FE98
FF33
F22E
C699
2596
CD05
F1EC
F7E6
08E8
2628
0662
073A
135A
392B
0E6C
2AA4
0389
2714
F36D
000B
F300
FE10
1EB4
FB5E
FA3A
2787
FA64
02D6
0C61
E7CD
F980
F319
F8AA
F98D
0A9C
206A
0FF9
E0C4
FF42
F7BE
F59B
FC6C
1588
FECE
07F2
F3C8
DB42
F3D4
0FAF
189B
11EB
0470
F400
0806
E86B
E173
F808
DCD9
FA95
FB20
FF9F
0371
035C
F9F0
CECC
FCE5
1456
0BB9
F94C
17AC
1149
FD03
00A1
2F11
F8E8
FF2B
171E
0E8F
0588
F897
16B4
FB61
FB3C
087F
EC71
0AC7
104C
F368
F50A
F81B
FD24
0918
EB5E
08DA
F958
0511
02EA
FBD4
03BC
E4E4
E18F
FD1A
3414
FF9E
0276
01E6
0AB5
FCAF
EDCE
36CC
210F
32E2
10BE
006A
26B2
0491
1047
FD1D
2CF6
01D1
F776
CE19
FB67
0339
FDED
FF78
E16A
E1F1
F957
F03D
F7D3
134A
205F
22E9
F8A0
00D3
FE07
0346
09BA
F6FE
2263
0BEC
FC7D
03EF
1ABC
08D1
17CB
3756
399A
2846
FC99
31A3
FE70
26CD
EB4D
05CF
D4B0
21EA
FBD1
F8A7
F193
0692
ED1B
F5E6
F3B5
3948
EB2D
FBA9
FF77
276F
07A5
FC9F
3929
027F
0215
0265
FCD8
F71F
08BA
0028
F5D2
09F8
373F
01C4
EE1D
01DF
FD33
06FF
398A
1F79
FB27
FA80
FE22
017C
0562
1FB2
293E
FA36
3985
F198
02C7
CF97
F467
04CB
396F
2E91
3930
0271
399A
EAB4
22B0
F4EF
2237
0254
38AB
0154
0016
38B0
F7EF
FF67
302E
3799
034F
3922
0926
0503
399A
CB3A
E9EC
1251
F79E
F9C9
F55D
0686
1DED
1AA1
265F
36A2
08E8
CFFE
3931
3949
ED44
2041
2A42
373F
38DF
38E3
07A6
0E44
3872
FD1C
393D
3882
F353
0966
CDA4
F5D2
36FB
F936
F74A
38D7
126D
F368
F8C9
38A1
F7A7
FEF9
2EF2
FD32
00BC
36A6
35F8
F927
FB94
FDB2
2B9E
19B0
399A
FC7F
0CFF
FE1E
FF32
F9D6
3825
377B
0005
F115
FE50
041C
FD3B
369B
399A
E80B
0D4C
D692
00A9
18EC
1E49
033D
3902
37C9
3844
3926
3980
E54C
3754
FC0E
DFED
E7E8
37EE
F215
FBEA
399A
0072
FE6B
398F
38C1
F150
3878
FE8B
FA0A
399A
0D6C
3271
020C
08C6
0229
0702
FF90
389C
3995
2B20
38A9
3762
3665
397E
3845
2DCA
38AF
355E
348C
37D3
3796
051B
387E
374E
029E
38A3
36A1
FBF6
00F8
03D9
00E1
399A
0408
F6B7
399A
399A
0718
FBE4
399A
F2F5
037F
34C2
FD85
FBBD
399A
399A
0996
FA3A
F7FE
3895
2D5D
399A
F22D
023B
FD4F
FE18
F769
38CE
399A
F29C
00AE
0433
0984
0163
399A
399A
14F4
374F
3204
0428
399A
399A
F3EF
399A
399A
398E
38E3
399A
3752
399A
0296
2922
0503
3966
0759
F1BE
3937
EC65
07CA
399A
399A
1ACD
3979
F5F8
FDFF
392F
26EE
399A
2745
FCB7
FACF
FEDA
FF6C
399A
399A
399A
399A
399A
399A
3965
399A
399A
399A
399A
399A
399A
399A
E97B
399A
399A
F6EA
390E
399A
FF22
FCF3
333F
F992
1338
F1A1
0F13
0FAC
399A
FD69
07C7
2715
F740
05DE
214F
0257
02E7
399A
164F
F000
F723
02E9
31A3
0E8F
2F4C
EF89
0BE9
F822
F8FA
FDEC
399A
18B4
06E7
F602
00F1
F9E0
018C
281C
26C4
09B9
278B
F938
0BFE
11AD
2F01
EE5A
2D0F
2693
399A
3913
2ED8
276E
399A
FE87
2AD0
F47C
09B8
0AA7
0554
2B97
0396
01D0
1CC0
3966
15EC
0CF6
0E35
00B1
1201
1D92
221E
1555
FD95
FFC2
02AF
FE18
1DC5
35F9
287B
1271
2DC4
2922
1BDB
3942
FF1E
38E1
FF44
0033
38E8
34FD
F98B
3978
2D2A
0ADA
399A
0066
03F8
08FA
2ED6
0737
DCF5
FAFF
F7C8
F4C4
E33E
0B7A
038D
C8F6
04F6
08DA
1AA5
FB5D
009B
C7A1
D7D1
FD51
0120
08EA
01F9
F96D
C896
FBC7
167D
081A
FB70
FB8D
10E5
E075
FF4A
05E8
F3E5
02CD
0D49
C7A4
C7BA
0D75
09BC
0497
0441
F090
0A67
FEB0
D2C5
2599
040B
F208
EB0A
0FB8
CB01
04D0
26C1
0937
323F
FD63
0469
E6B3
FFE4
00B8
CACD
CE80
FC16
3857
0376
FAB4
2DD4
FCD1
DD21
04FC
005E
F851
03A7
0389
3580
D0EF
DC99
EFD0
C6DC
C9F3
1B2A
1988
F130
C925
EAA4
E86B
E171
ED2E
F893
C7F6
116E
08B0
0356
C79E
EF01
F503
1A14
F998
0B3B
00ED
08DA
17B1
065A
0133
0DA0
05A2
F840
FE33
275A
F28A
0CBE
FDD2
FC04
F09B
FEF9
0FDB
E70E
03D1
ED7C
FE4C
FD97
FBA7
FC07
F99A
06DC
0636
014B
FD9B
F484
F857
FD91
1279
E418
0172
01EE
0B07
FCCE
F00B
E52C
031F
022C
2015
0986
0AE0
14FE
F702
E1CD
0241
2F54
F75B
27D3
00E0
04D6
E88C
0B19
060A
0629
E808
ED16
292B
F852
F6F1
1633
F2E2
F335
FE33
13C8
0ACE
015C
014D
28CE
D0BC
1178
0029
F564
F177
33D0
1532
FD19
FF1E
0863
06F4
1F85
F280
F9F1
FDBD
0776
F96E
13E7
F25D
F505
06B0
FD2F
03B1
FC18
FE56
F77B
FD84
1D26
0533
04BA
0D2C
FD98
FFD2
0AE9
02B0
FF5B
138C
232E
FFFC
F7B2
0B9F
EE94
F965
13F7
0319
F920
00B4
09D3
F9BC
0718
26E6
FF21
F473
FD61
FE12
FC05
2E21
01B2
083D
1A83
09B4
F2A8
0788
06E8
02BC
0376
1665
1579
FA15
FD37
F818
05E3
028E
1209
035B
FDC8
F91E
F78D
F234
023A
F1BF
16C1
0101
0DCC
16CF
0456
045E
0BC7
F538
03D7
1409
05CE
05F6
0A57
0231
16EA
0195
1BDF
0E73
0181
0264
1EAA
0C1C
F969
133E
1607
1E25
0C24
05BD
FE23
0895
0797
069C
0151
1189
FDA0
02FF
0B62
FBC4
FEE6
05DB
F43D
0498
042A
FC7D
0CA2
FB8E
FAE5
F549
F6FC
FE50
FB40
0BEE
0342
F9B2
0C02
07BB
0003
07EE
0F93
02BA
FC79
00D0
0134
01EC
134B
03D7
F48E
FA74
F89C
0275
FDD1
073B
FAB2
FD67
0B4E
064E
FE58
F6FC
F893
F7CB
03D4
FB14
0ED9
0F2D
03A6
FC59
FFC8
0204
06E4
FE77
10EC
FD94
FF0B
0B76
01E0
077D
FE8B
0306
02C4
0BFE
04EF
04FB
0AF4
FBC5
036A
FC5F
FCC3
00DB
0A81
0E37
08CA
FE8C
00ED
FB1C
FD95
F613
1275
0250
FEB7
FE3A
0809
0A30
0D4C
017E
F4CB
FD85
0CA8
FC33
0691
020B
0EA3
FAD6
0A80
FC09
F700
FD9C
FE3F
F9C1
02F6
FDFE
F1B6
0140
0354
F60E
FA43
FC94
04B2
FCA4
03DD
FAC0
05E7
0001
0197
047D
01DB
03FC
FF10
0740
0845
FDD8
0753
F34E
FB47
06BF
F961
0250
FFBC
0AF0
FD9C
F33A
00EF
03BF
0435
03E9
0A98
01C0
F3AB
00BF
FF00
FEF0
02CE
0531
08B6
FB1D
FB07
F74E
0185
0377
FEEA
FA68
F852
FE5F
023F
08F5
0896
082B
022F
FBAC
071F
0BE0
FF44
04F7
0004
0348
F996
F700
00C7
EE67
03F6
0E2F
FA1E
F777
02FF
0D01
0034
07CD
FBC7
FE51
F7AC
03D9
F98F
F5F4
F6B4
0428
1685
F80D
FE22
FD80
05D4
06D0
050D
FD3A
F38C
05C3
038A
F37A
F7DE
FDD9
FCE9
F9C8
0A1D
F94E
FC80
00F5
07A6
FD03
0009
03D4
01C0
0166
0642
0298
01B6
FD55
0121
FB04
0FDD
067D
031F
FB8F
FE74
04C8
F2E6
05D0
FE9F
FA74
082E
FC17
F8CC
081C
F706
0729
0AE2
F68B
010B
056E
0AC7
FF08
0515
0529
FCAB
0459
0B21
F8BC
0213
02F7
F8B9
010D
016A
00D7
FF6F
FDAE
02E2
0344
0810
0183
0508
FE48
0484
FBAC
03E9
FCD4
FEF6
05E2
0E1D
0ACA
00C6
FC52
F8B4
0482
03F2
F595
01C2
0AC0
061B
051F
F813
0B9C
FE67
FC0A
0E50
FE64
FE99
FFEE
06A8
0AA8
02AF
039E
FF5C
F529
0918
0513
0853
FC01
00FC
0D2C
0F7C
0086
020D
FCA5
FFF9
FAB2
073F
FD35
00BA
064D
016F
0734
FED2
0530
F8FE
FFE2
F653
FBD5
FAE3
0D64
F8AA
0D6E
0493
05AD
FD78
060D
0F88
07C4
02C1
0290
0741
011A
FF58
084C
FEAB
0807
0FEF
08D9
00D2
FEB4
08DE
FA4B
0EAB
FEA6
00F6
03AD
1691
FF65
FEBD
FF5E
0610
0CCF
F8F4
FD8F
FEEE
FE1F
0D19
075B
09D0
FCAD
F867
FFA5
FBE8
03A0
07DA
F29F
0794
12EB
F819
0220
F978
FC0F
02D0
0EDC
0D2C
037D
071D
F083
FD6E
FE43
04EC
FEB2
F9DE
F99B
05E9
01B5
FE09
067D
FF06
FD60
F90C
F17E
0123
0933
0374
1270
FE33
F711
0C63
0E47
F93F
FF97
FC9B
03C0
FBE3
06BF
083F
0DBD
FB0C
055E
0739
01AE
0DCB
0646
00FE
0EBD
FAAB
0847
FAE0
07E3
078C
067E
08D5
FBC2
F75E
FF6E
0212
FF74
132B
02AB
F7C0
F97C
059B
FCB9
0C5B
062F
03C7
05FC
06B6
FF31
0AD8
0C25
FB2E
031B
0524
0BB5
0541
04EE
F269
FE43
FFD1
F9CE
FE17
FF77
F7F7
03E9
FB6D
FD80
06A8
F981
0B20
0776
FB36
FA57
00F4
FACC
F69F
F76A
FC2E
FD0F
0559
FAD4
FC3E
FD9C
FB07
0700
02E8
108C
057C
0292
0531
081E
F470
FA6E
FE70
005E
0107
F54F
029E
0172
F9C5
F7E8
0239
FCF0
05E3
051A
01EA
F610
F9D4
F353
FE96
F9B9
0B45
0478
FE13
F78C
0C83
F9ED
F139
F982
F605
05A9
F8E3
038D
0A6E
F6DE
FE19
0D6D
FE8A
FE14
FDD8
FB4D
FA6B
073E
081C
FA05
0C61
0CA4
FCDA
F535
F6F9
FE99
FDF0
0BEA
F751
FF35
FEAA
062C
FE61
FE0F
FF43
FD18
01D5
0411
F9F7
05E7
0378
FFB4
0713
08AE
FAB2
FD81
00BE
0B84
0325
0053
0CEB
FCE6
04AC
FAEC
00E2
0711
FB80
FAFE
FF2D
0B29
F3C9
F9DD
06E0
F152
0C19
0123
0EE1
F74B
05BC
FB7D
0177
FAE0
FB99
F41B
EC5C
FF9D
105F
FDF9
FCA1
0364
FB5C
FC70
F742
F991
0777
FA19
0167
FD71
F9FA
0227
05BA
F788
026B
0572
FDE1
FF73
0009
0169
F82F
FC6D
02DD
FABE
FF67
FF7F
FA99
00EC
090F
FA81
FBBC
FEE4
F7A3
FBD5
F5B9
F311
0252
05CD
0C08
FEE3
069F
FDF5
FAE9
0478
FE42
0490
0207
F93D
F85F
F8D3
FB6E
064A
FF38
09DB
03C8
FEC5
FA11
F263
0784
090A
FE62
0C1E
FF8E
FFD6
07E7
0016
FCDA
FD84
F418
FF75
FFDD
0872
0476
FAD5
0596
0208
0ADA
0643
FF48
073B
FD6A
F95B
01AD
03DC
073E
FFCC
0067
0506
FF7F
0B28
F5B5
F73A
FE17
07AD
FF5D
F69D
0561
F836
08E4
0644
0A6E
08B0
0797
04F5
FDDB
FF4D
0019
015F
FC46
FAF0
09D6
F7E3
077B
0E1B
F8F5
09A3
FF36
0A28
FC1C
08FA
FB3D
F6F0
0C43
FA3A
F732
003E
FDD4
0841
FA02
FCFB
057B
FB04
072B
0773
0DC3
0E8E
FAFE
FB0B
F9AC
FFE2
FF21
FE80
F80B
0903
F5BB
FC46
058C
0459
FE91
0698
FDB6
0DBB
0743
FAD0
05F2
FE7C
02AB
087A
FA48
09BD
FE27
0795
0311
FC2E
F696
F785
020F
F878
FC93
FE4B
FB8F
FCE7
0435
07C1
033C
0478
03B4
FCF6
0149
F44A
0090
FD0A
0893
F321
F896
0FCB
0518
0995
FA89
F5ED
0358
011C
03C5
0AB7
05EB
F547
FC77
F0B6
03CA
FCC7
F732
027E
F857
06FC
04F8
0F7B
FAC9
069D
FCE0
F7A9
0CE0
F8A5
0B70
FD8A
0505
FD0B
FAA5
F9C3
FD1C
01B4
09B6
FA80
0033
FE22
FF6A
F8E9
F66F
FCC0
FFC7
10AA
0A62
FD32
F707
F428
0689
0857
0E63
FE2E
02B3
FDA0
09DF
066F
FAA2
012C
F914
00C5
F631
015C
0843
08C2
F76A
005B
F6C0
0790
02D2
F823
F9AC
03E0
F43B
007A
0282
FB6D
FE29
00A0
0401
F759
FC1C
058D
EDE9
06CB
0944
0D24
EFA7
FCD2
FB84
0A0E
04A0
0719
0518
F571
02E9
F0E9
0310
0165
FEC0
01A7
04F4
FA96
027C
0A17
02BE
0199
FFE6
F702
09E6
FD25
0047
FDEF
FD89
FBEA
FB1F
0676
0976
01AD
F7FF
FF8B
0F62
022A
FEA5
FA53
03AC
FE58
08E5
0787
0390
0086
03BC
0230
FE61
0937
FF5C
FC4C
F460
FE83
F560
0549
FA6A
F9A9
F050
01EA
FDE7
04D9
F992
0716
051E
0B5C
FCD9
07D3
FA59
00BB
FE5E
09A1
0307
0D95
02C6
013F
FF8D
01E8
FB0A
F89F
FC54
FD85
FC79
0F29
FECA
FDFE
08C2
0649
FAFF
05F7
0712
FA49
FF18
04FD
0652
FAE7
085A
03D7
F9B7
FE60
0CC3
02C4
F2F0
F76F
0A82
FFA9
0134
F7F2
0AB2
FF3B
FBD8
FF2B
14E1
003A
029C
F617
FBA8
F31E
06A5
FB4C
FCE8
00E2
0288
0E4A
002D
0755
FB11
F921
FB12
FF9B
01CD
0754
0664
FC1A
020E
077E
F6C0
FB55
F732
0438
FFD8
F9F8
0388
FD88
06D6
FEA5
024B
F661
0324
FD60
F447
F374
F941
056E
F152
0826
FECC
019F
0539
FA85
FFCD
FEFE
FBEB
05EE
00DA
053C
05F5
02C7
055C
F837
F6EE
0A11
FD61
0483
079B
028C
0599
F798
F6E5
F7FB
FBCA
EDF4
FD34
F32B
06E8
02FF
035E
F294
FD48
0A14
FB0F
05F1
F9DA
FEF0
1257
04A5
091D
FFAA
F55E
F5F0
05C0
0215
0A16
FCB4
0277
FB2F
049B
F193
0043
F9DB
FF1A
0708
02AF
0458
FA80
ED7D
F833
01D0
F7E6
0292
F33D
FEEA
093B
037C
FA1D
04B4
FF14
FBAD
07CB
02A2
F26C
FB8F
0AB0
FF34
0DB8
0539
0692
F476
FCB1
0A73
0983
015C
FB67
F9C8
FE1D
FF42
F935
F941
03ED
08C8
02E0
00CF
0977
F7AD
FEE0
FD3F
FC5F
F95A
06EE
0419
FE65
0A9D
F5A6
FEB4
F983
0B9E
FEC1
0229
FD8D
079E
03CC
035E
0117
05F4
038F
044E
F61C
0875
078F
04D0
FE0E
004E
F899
FCB1
0DE3
FF38
FC36
0211
FF33
F8AE
0374
FD0F
0073
084B
01EA
0960
03CD
FB72
FAC9
