0194
0cf8
0470
00ba
0cce
09f9
0909
0690
fc8b
f73c
fbaf
1674
ee74
fe7c
149c
fc34
fc3b
fda1
03a9
15bf
fc61
1bf3
fb64
fe73
0642
00a7
fad9
0fab
0d55
0187
f901
fe8d
fee6
0294
1907
0a6b
083c
0293
0889
0a59
f268
141f
0953
1bde
23d7
1b8e
2a8e
3152
16ee
2449
027a
ff68
fa74
0cec
f713
02bd
14d9
04d3
f7cc
02e7
0ae4
fc4b
3012
fb66
01a6
1f93
1713
08ed
0679
f024
005c
04bd
0542
188f
2053
f307
08b8
149f
0b27
249a
1c0c
f9d5
0f03
f06c
f6e1
300f
1ced
0c42
0a94
32d5
00c7
3994
0aa4
fae8
01bb
2471
00f8
fdb6
f6b5
f64a
2798
084f
fedd
f88e
31fa
f721
fb0f
2dac
ecb1
02ad
249a
1158
ff7a
012c
06b4
0348
11ef
25d3
05d8
0807
0575
05d9
0086
2342
08cd
faab
f625
01ca
fc10
f85f
0dac
38b2
03fb
2cdf
ff25
0738
17ba
2663
ef9d
39a0
39a2
399b
2fbd
399c
01d5
1827
f2d3
1353
f99d
258f
fe00
0094
2a46
fc76
ffec
0733
3997
00c6
1a6c
ec59
02cb
2bbe
fbef
0168
154b
ff6b
009a
f5b2
107a
2f7f
34ef
19e5
3998
2b95
114e
36d4
2ca9
1ecd
128e
03ff
1633
39a0
2c62
0008
2caf
30aa
fc62
399e
1d54
fcb7
f288
fc01
07ec
f909
fe0a
0b63
f498
f879
fcba
0410
1155
fbc0
f4e1
1681
08b4
fcb3
fc25
fc00
fcbb
0c09
fe56
37a1
ff2f
3911
fea5
0272
fff3
fc1d
f9fd
35c8
f9cf
f207
fb82
04b3
fc89
09b1
e30f
22ee
f681
24ab
f52b
f5cb
3007
3778
f74c
2158
090f
07c4
36b2
2bbb
3132
17a1
05ec
f4c7
0cbc
2ba4
fd5a
11af
23ac
f78a
0166
365a
3766
cfcf
0535
0bd0
fab2
3728
0938
3820
fdc0
fcbd
f89e
fd9a
01eb
24ef
2a7c
1775
ddbc
efb6
0cde
2a28
3460
1580
2c1b
0441
120a
1e25
f10a
0e5e
37da
13db
ff11
1c83
d38e
00cd
f895
dcf3
f927
23b2
f7e4
f610
ef4e
e832
f95b
03e5
0c9d
0216
f744
3957
0737
046a
0777
c666
01ce
ff89
fe72
1f5e
2672
c7a3
fe2c
f1f5
0885
f857
0723
ec55
c84e
fdfe
f9a0
04ad
0269
fe0f
ecfc
c720
10a5
3988
f03d
fd65
c668
c6d2
020a
edc3
35ec
1b54
1a1b
c92f
3350
fff9
083d
d3e8
f6af
36c6
0a23
01ed
e179
f620
fead
c805
e8a5
2761
0181
14b1
ff43
ecb0
ef58
0465
2216
ffea
05db
06e2
f6f9
2a44
c702
160b
d49e
ef5b
20db
dc09
dd4f
cf24
fe63
10b7
ce67
0144
fc5e
fa9d
c6dc
fae1
ff32
dbc8
f6d1
f5c1
f9ff
c9bf
f8bf
399a
f93f
fbb4
f94a
1264
0582
fcac
15e2
fbf9
03ae
efe3
0d4d
f869
3995
21da
fd81
049b
f5b3
1487
0f05
074d
f83c
160d
fd56
0119
005f
3939
2f65
eb71
fabc
0146
fcf3
05d6
3998
0e0d
132e
f628
f9b0
fded
1e69
05c1
f81f
196c
31e3
e6a1
1527
1177
07d0
3471
feef
f1bd
f168
280a
ff8f
fc3e
dac6
0758
0555
3445
3996
1e70
fd6a
0157
07ca
fde9
f0fa
36cb
2496
fbf0
fd94
fa43
f7c5
2cc4
076d
18e2
0128
176a
389d
f445
14da
0e88
24f6
2d55
09bf
2691
326d
f677
3996
2dd2
feb9
3000
2f59
fe40
e4fc
2df2
0adc
f32c
fca1
00a7
3111
f93a
fb0f
fd9c
d068
0004
fa86
0382
030f
fb51
2417
f030
fe85
03f2
f7c8
cfc4
03bc
ec1e
f44a
f2c0
088a
0211
ffef
1609
1a5e
fb17
fdfd
00fd
fc3b
ff15
eedf
10d5
1890
e2db
00cd
ff06
e3f0
eeaf
fade
0f4f
f08a
0ac7
26d6
fdee
d398
f99e
0457
32dd
ff18
fd8d
05a0
fe97
0fcd
0295
f813
c7bd
00ca
fefb
23f4
01b9
0b0c
1f25
1072
c7d7
e351
0097
0592
fc82
00e7
29f4
dd61
e091
1865
c9dc
e774
2bd9
13cb
ded6
e34e
c97d
dbce
f471
c7ea
02cc
0fbd
1b0b
0c4d
3927
c70f
f90c
fa99
3749
00cf
c6ef
008a
fb39
dde4
fa69
fef5
0267
c739
fa71
f9fc
0914
f732
047a
c773
c9cf
0040
f6dd
0399
360d
c6d4
c78d
f527
04cc
f7fc
f68b
fe66
3998
c764
0549
0179
056d
f6b2
fcd5
c761
c732
e5a4
3993
21e5
faa3
de1d
d3f2
034c
345c
30cb
d68a
399e
29ce
2344
c84b
0037
3262
01ef
2b4f
f629
0039
0d56
0281
039e
c761
c8c5
0501
09de
fce3
f7f7
1533
0ed7
c738
dbc9
f017
00bb
f73e
fcda
320f
c756
c7d6
c7cc
c688
c6de
1145
166e
d096
c7db
c7af
c7e6
3998
ca66
f63e
c82c
3999
03b1
397d
c77b
024c
fef5
3900
024b
c666
f88f
09b2
f07c
c666
ffb2
0278
c6bf
f914
090a
df08
0b56
fbce
c6d2
c666
0356
02ca
fc36
cc39
c778
c6ef
0903
fc25
fde9
072f
fed5
c7c4
c668
034e
ee91
fdd5
00ff
0125
c668
c6a6
f287
c802
fd31
fd6c
e1a8
c6a9
fd94
c7a6
ce95
ec3c
c7da
c786
efd5
c6fa
0349
f15a
15d9
e825
f5de
05e3
c704
f959
ff4c
c6ef
c74e
06bf
df63
fb87
f39b
c80b
e53d
c6a6
c666
09fe
0387
f2b7
fa06
c87a
c6a6
c6fa
c7c5
c666
c666
1ed6
fe48
c666
c6fe
132b
05e2
c7a8
c6c5
0c8d
c6f1
c79c
0303
c812
c6c5
fde3
0010
f4b2
f973
1b63
051e
0275
0bd1
176d
fd93
f793
3955
03e6
f8c6
2645
f3e6
f3fe
25c9
392f
fec8
fdbd
ffae
076c
fa22
3873
04e8
0824
f8b1
01a8
0576
2994
2efc
f8cf
f70e
00b5
fae6
062e
3689
37f0
f691
00f3
fdf1
fff7
0723
291f
052c
2dc2
38cf
12f5
2f52
3173
0ead
391b
07ba
f85c
0c21
ee15
fc95
f9d1
37ca
fb34
ff2a
399a
32b3
f8cd
1209
0699
f6db
0b08
0476
188e
fb07
00ca
f922
0026
f976
0cdc
3876
147b
37b0
3958
3933
1706
3789
1f4e
399a
1aa6
337c
37ad
399a
0f87
38ee
37d1
0299
3737
3943
f37d
fca5
06be
02fe
170c
0832
06c3
08b9
10a3
fd9a
fd88
2393
f51b
fcce
14df
ff18
fe3d
2162
0de0
fcf6
0656
fe67
214f
1199
21b5
01bc
007c
04b9
0137
fc81
32fc
0a9f
f957
f2f4
fb4a
0941
fc5b
2832
1c31
ff0a
3230
056c
f3dd
1bf1
0dd1
fec4
2e64
15f5
1ab2
2d45
0e16
099f
3188
fc04
fdc2
0715
0cb2
f99f
0136
1f56
f795
f82c
20ec
3652
0845
0266
ffeb
f945
11e8
02b2
151d
0f53
119e
032e
f8c6
fe33
fdc0
1c41
216b
1cdc
10db
2751
1634
2f30
07ff
215f
1817
f756
1e07
2bd7
fc74
173e
1726
fcc3
2dcb
1bf8
fe0b
fe63
0a34
ee64
0660
0543
fd7f
021b
1703
0255
fe20
0c92
fade
fdd4
fd81
f29c
faac
15ef
05b8
ff7a
0230
0619
1660
0660
0aed
ed98
fea5
007f
f7f3
01e2
02b3
0f76
fdbf
02c1
f3ec
fcf6
fed2
0ca1
2799
f7c3
1b94
fe72
fe68
1559
1098
0155
1d7d
00be
0935
0cd9
1aaa
feab
1747
ff77
025e
ffd1
fc24
f8b3
fb66
2a92
0298
0411
1ef7
fec3
04b2
f86f
fdac
0147
1e62
01e3
08d0
07e5
f567
0282
fddd
f993
ffbe
1c6a
0692
1658
1ce2
0c80
190b
22ad
ff1e
1594
1077
0a80
00af
238b
ff80
23c1
1d85
018c
2293
169b
f968
0197
056c
f7ed
fec9
031e
e9d9
0000
099b
fbef
f4bb
12f4
f63a
fc60
f8fd
006a
fd71
00fb
0705
ff66
00a5
ef8a
07dd
f640
f4ef
0992
f63b
013f
faa6
fb4d
103c
fec2
0295
02a3
0811
fdac
076a
14d8
1544
0284
0c57
157d
0f77
0344
095b
042c
09bc
0e41
0110
1243
0636
0565
14a0
0234
0302
05d7
108d
0880
029d
04fd
f786
0206
03c8
f79b
0574
ff94
02f3
fc10
1115
0262
0f86
05d7
0123
fcaf
0038
05b3
0a6c
fcd6
0bdf
03c6
0b69
0357
043d
0241
05ec
050f
00a6
fe76
0547
f7c7
049c
0aa0
01c4
f691
031f
10f6
0455
fdeb
03be
f8c9
fe31
034a
ff56
faef
ec81
04a6
023e
f621
0429
ffe7
03e5
0674
fae0
01c7
0167
0547
0cf0
04b9
03b1
0e72
f95a
fccb
f926
ff4a
077f
08fe
0af1
f743
fc2a
fbd2
069a
f9b8
05fd
fb5a
ff0c
0c0d
ff19
0ba5
f63c
fd1a
f346
fad3
0bb7
0984
018f
04ba
fd63
f919
05e2
0956
fef0
f707
fbf5
fb49
0af2
01ea
f8cf
fbc7
fbb2
03a4
fa96
fc18
fe63
03a7
09a6
077e
fcaa
f61c
fa20
01f8
f6c3
01be
0275
fce6
0902
fdae
098b
f9bd
1006
0a7d
ed4f
0158
0b0b
0686
01d3
ff09
f673
011d
ed38
f8fc
0952
ff6f
fd7b
ff44
1455
072c
fd79
0b8c
ff63
06d5
fa51
f981
058e
fc63
fa96
0638
fc96
f62a
03c7
f2b9
f60b
fd77
f849
f851
0782
05a2
fcac
03ab
0a01
f71d
006d
0db2
0c7a
0702
fe9d
fa79
07ec
0487
ffa5
fea7
f4c6
029c
ff43
fe3a
04a6
0671
0659
0fa0
0d7f
0017
fe3e
12e1
01c8
00bb
0fb1
0be2
ffc5
01a0
fc67
f9b5
fd78
02f2
fdc3
010e
133b
06e3
029d
0589
fece
0890
0105
00f3
fa76
035b
00e4
0661
084c
0496
11fd
0cf5
0385
038f
f430
066a
047b
fccd
fbda
0bf7
fde2
0c0a
0762
029b
fee8
081f
f822
0e23
fdc2
fda0
0875
0579
084d
095f
0baa
f728
fcb9
05a1
01cf
f1c7
073c
1498
0a25
f8f3
0d71
f144
0bb5
fa6b
02ab
080e
08f2
0273
f4e7
069e
024a
028d
0620
0496
0eb3
0494
0713
11d1
fdd2
01f4
0141
f01d
01a1
09e7
032d
0492
fc3f
00db
0a6a
fdfa
002e
fbca
167f
fd96
0fad
0dc1
1812
0a1d
08c7
f552
0f39
0981
feaf
052a
fa74
fd8f
f4da
0677
01b0
0fbf
0b9c
0f83
0495
0576
04a0
016a
fd76
fe67
ff41
075b
0e42
f8a3
0bed
03a5
0ced
0af7
05b6
0035
09ed
0c4e
fe7b
198e
0381
fd6a
0fdd
060a
f66d
0cb6
1289
0e73
07dd
0d98
00eb
01f8
0b6e
05e7
05c3
f991
f836
fee3
04d1
037c
056b
0b88
ef5a
0642
f8f2
07f8
0255
0687
f837
01f5
f310
079b
031d
ef0e
0bd1
0b9e
f9cc
0867
face
f04c
fdee
029b
00ed
00b8
020e
0180
fe81
fc81
ff71
fcf9
02a1
f7b2
fc3e
02b6
04a4
ff8e
02a7
08e9
06a6
0891
f708
01ce
0c67
0392
04f5
01d9
f9f5
0878
f695
0931
ffe3
f5cc
fcc8
0f2b
fd54
f8a3
fe4b
fa53
f98d
05f7
0a3b
fd6c
03a1
fd52
ff4f
00da
0df4
0562
fae7
02b2
fd2e
0150
fa77
00c3
00b1
043c
f732
f402
04c8
076e
0eb0
02c9
07a6
070d
ff26
01a9
fd06
0c4c
f60a
ffba
0d93
ff41
fc0b
fee3
0493
03ee
01f4
0736
068d
f855
fe6f
061d
0363
0277
0335
0699
fa0e
f780
fa41
0f2b
f8d6
fe60
fe90
0725
f3f5
ffba
09f5
0738
02d6
fe31
0c2d
f46b
06cc
034f
0265
0377
065b
068c
f803
f949
00c1
005c
ffd0
0cf0
fd51
0ac5
00af
13e4
f8f7
fc38
feef
090a
fbf6
0b7d
0b12
0391
0308
f538
ff96
f873
fddb
03be
fdd4
0693
0192
f675
fbe4
f9ea
fdcf
08a5
0381
0259
fb72
0f0a
029a
0ee6
f839
fefa
1095
f7d3
0349
00ed
fc5b
0d81
f8ef
0761
077f
fb4f
efea
f3aa
f82b
011b
0253
feb1
00f9
06b8
0c87
02a0
fbba
04e3
035f
fad2
fc01
0da2
0cc9
fc54
f423
03f1
f9be
0769
fb9c
0f72
00c7
0641
fc1d
f127
02a1
01d1
04ad
fc2a
f70d
f4e9
093e
03d7
f9ef
fc57
faf4
f2df
00e3
04e5
fef4
f813
0551
091b
0ec2
0493
fe83
f23e
f9f6
05ba
0634
0cbf
023b
fa42
fb3d
0105
fc1d
086b
fa27
0bb0
fb62
ffef
018c
fd9e
f28d
01c4
08f1
fcc3
f288
feb1
02b9
f94c
033f
ffbe
fd2a
0121
04e5
0261
0a34
0d37
0d27
e91d
fbed
faf8
fdaf
0661
0149
049e
0c37
f619
0359
0899
003d
ffe8
faa0
058d
0314
043c
0221
00f0
f7d5
fddc
0815
ea6c
053f
03d2
f891
fad4
fe96
078c
fd69
0816
05e0
fa56
fcbc
016a
030e
04b6
fef5
0109
03e6
0924
fa24
042d
f31d
0320
01c6
ffff
f887
09ee
0639
002d
032e
f97e
038d
0a12
f6b9
1480
06a4
05af
fa47
0698
faa0
fb6f
068a
0606
0282
11a3
fb7f
fcda
06c0
fc17
f9fe
010d
0289
0254
ffb9
feeb
ff87
0717
095d
055b
f7c6
f8fb
f05f
f829
ffbb
0270
f907
0ced
06b3
08a0
fc72
01b1
ff55
0b24
fb2f
fc8b
0978
172a
01f6
02a8
f1b9
1284
0603
f3ef
0afc
0bec
fd6f
0222
04d9
0199
0846
0ae5
0844
0545
03b6
f725
f9b1
05ac
047c
042f
091e
fc29
03ea
fbf8
006f
0670
fcee
0d59
07db
0996
fdf9
f661
fb29
03d2
ff9d
06dd
018a
fbea
0639
095d
faed
038c
04dd
00bd
ff47
f752
09c4
f8c5
f9f8
05d5
0145
fb3a
fe8b
feed
fcfb
04f4
f968
0284
0d37
073b
fcc1
0008
0344
fd5a
0a3b
f340
0d97
f1f8
02d9
f87f
05af
fb09
f826
fda5
fd23
f4da
02fa
f318
07f9
fdd7
098d
fd11
fdf8
052e
fbf4
f547
ff66
f676
037f
0843
08c5
ff0a
fe71
ff01
fdc8
06fd
ffd1
007a
0270
f332
10d4
0847
f658
042b
f8cc
fc44
fbbc
08d2
f2b1
fd8b
f606
0036
ff1e
f641
09fa
0ce5
fed0
039e
fef8
0594
0a9d
fe24
0f5d
fe01
ff5a
0c98
0503
f1ec
0131
f718
f544
fc86
0239
f849
f6e1
fd5e
02ce
fb2d
fab9
f0d9
fa9f
05d9
06f1
0579
fec9
00a4
05ff
fada
08bc
f39b
04ba
fd2e
f8e3
055b
fe44
026b
1101
01ea
02d1
fc78
0aa9
f348
0d05
fe50
020b
f9ca
fefe
074d
017a
f98a
fc5e
079b
fe38
05c7
03de
0281
fd72
f368
07ce
0f89
f9f8
ff06
0962
0c14
0546
0746
09d0
fc86
f126
fc6a
07ad
0571
fef9
0055
f659
f68c
02b2
fa70
ffe5
ffb0
fbd6
0f23
0491
0129
fecd
f5ca
0b3e
05e0
fc50
0197
fb59
02bf
f6b2
01da
0a67
0318
fbe9
0695
0d84
0510
00ac
fa71
0305
0d51
f207
06c5
0106
0a7c
ff1d
f102
0dcc
f7f8
058b
ff1e
ffba
00f4
fc38
014b
0222
058e
00de
0235
0934
f9c0
007c
0350
072c
ff8f
00b0
fd9c
0898
fdc6
04bf
ff4b
0037
f787
0065
ffcb
f5b9
fadf
fcdb
f569
f791
0a2e
f8dd
fa11
f654
0881
065d
0234
0095
fc98
fe08
fb54
0490
04cc
0653
0e32
04e6
0465
06f4
f551
0008
f585
0aed
fc96
0c49
075b
fc2d
f480
f836
0732
fdc6
f5bd
fe71
0bba
0b26
fcb9
0222
043f
f5c1
fc4f
fd31
02c7
fd9a
f652
023f
fab3
f961
f783
fe75
0c2c
feca
076f
f093
fa31
f749
ff7f
06a2
fc37
f761
0691
fa56
02c9
fbc8
0395
fd53
0582
044d
0f64
01bc
fa4f
f7f5
fbdd
029a
fb0e
0a61
034a
f8bb
fd9d
fce0
0136
f8e5
08a2
fe5b
fe5b
0846
fd49
0056
0f18
0452
0292
fe2d
f91d
0d53
fee9
0d9e
fb43
08b2
feb8
02e3
086e
03ab
0722
f419
fe48
0e37
fe60
040e
ff00
fea5
f68f
f81d
0ba8
ff74
f776
fbe2
058c
fb17
faf5
f984
f97d
0d2a
0069
fe86
fe98
0543
00cf
02ef
02df
fd89
ffd5
f38e
fc93
0f3e
f790
0008
0253
0902
126b
fd40
f9ec
0758
017a
0de7
0506
fb5e
fea3
02ee
0378
f825
f2ab
f4e4
0447
fef0
f34a
fc2f
f294
fe2d
fa01
fc22
ff6a
0144
006a
08f3
10a3
05e7
feb0
0536
faf6
fa47
f9f7
0207
0895
0f69
092d
04d5
fb3b
0088
03c4
ff27
0ce8
fa52
fb0d
02a2
0de7
f371
fa23
08ec
fb4c
0e44
fa4f
076e
ff64
032f
f8d3
f4df
0560
fc55
f9a3
f858
f8c3
0960
f99c
fc3e
0da0
fd01
fff6
028c
fdf3
fb3c
08dc
0237
fba4
f667
f7fb
f8e7
f110
0822
00b5
03b8
f62b
fca4
fe56
0086
fe92
f760
0791
04ec
0085
0727
085f
09a8
0121
fdd2
fb64
38d7
fb24
f9ac
05d5
1ca2
0469
fa1e
34d4
0657
fcad
22ab
f9a9
0a87
003e
c666
f577
01ed
fead
327b
3917
01f0
f4bd
f388
01bd
01a0
f96e
34f4
d209
004f
04db
fe17
fef1
f083
cf92
e6da
017b
36c2
f63d
f266
171e
2c82
fc83
37b1
37dc
30f4
3929
286b
3885
3638
fc61
1a6e
f9d1
3590
fc8f
00ad
e484
fb78
f5dd
f459
36eb
e445
3931
f48e
070d
348b
2390
3928
13c0
f463
01f8
ed9b
fc6a
38fe
e93a
2775
f094
ea4f
37fa
20c5
2284
2473
2d4d
1c6f
0d50
38f9
3726
0239
3246
dc37
fb56
2fd5
1027
0777
0488
fc6c
0909
ff3b
fcdc
fa94
c74f
2236
f8b5
fb42
d405
05ff
fbb2
1e8b
ffd0
f4ee
f5e5
03f1
fee8
fa5e
febb
c700
20fd
c6f9
0635
019f
f797
f6be
ffdb
1790
0c38
02d7
087b
ff87
0098
fb85
345d
d3fd
1e56
f9bc
f5ca
ff3d
d4b9
c698
ff07
34b7
2e34
0652
1568
3821
f9da
c70d
fa2a
3281
fb1e
2202
02cd
fa27
c783
0025
fe8b
c705
0475
f4d3
386c
f9a5
ffb3
3931
c666
287d
3497
00f8
fd4b
00f2
fd50
37da
c6e3
0bb7
e648
0656
184d
3946
307e
d2c9
121d
fd1d
d0a1
343c
2eed
efb6
15b1
33fd
0337
f7d6
c6f4
f7bd
ffdd
24ea
fbf6
1952
017b
012f
282f
d1a2
f9d0
fc76
0c1a
03f2
0231
336d
f846
0470
3995
012f
0d4a
f7c8
fd97
c860
18a7
d6d1
08d1
f553
f9b6
01c7
f762
1e21
2c8f
fe5c
ff08
f63e
fc31
08a5
1b8a
f79a
3999
155e
fbd9
f206
d1a8
0deb
fdbf
15ef
19c6
399a
2a76
2eed
f4ad
f4bb
ffe6
3864
0a98
21c2
fb85
f578
2823
fbe7
ff83
dd05
15fb
e772
37df
f68a
15cb
3998
0c5f
0717
1824
f618
f718
01db
fe79
3999
e39b
13ff
2d5f
f38e
f2eb
3963
2af9
14e8
fcf5
0e89
175b
303a
f75f
058b
1d28
11f0
f71c
3997
fec2
fca6
fb8f
3931
fe66
e7b8
0475
0242
1963
1ac8
014b
f16e
e7aa
fb7a
0777
ecce
f61d
fc3c
c695
fcda
022f
05ed
0416
33ba
e435
0158
0a11
f55c
00db
fc5c
f262
0bc8
c7bc
04c7
0c6c
fe98
ff33
f22e
c699
2594
cd05
f1df
f7e2
08e8
2628
0660
073a
1350
3921
0e63
2a9c
037d
270b
f36b
000b
f2f9
fe10
1ea6
fb5e
fa3a
2781
fa64
02d6
0c61
e7cc
f980
f314
f8aa
f98d
0a96
2066
0ff6
e0c0
ff42
f7be
f59b
fc6c
1581
fece
07ef
f3c9
db41
f3d1
0fa2
1891
11e9
046d
f3fc
0802
e860
e16f
f808
dcd9
fa8f
fb20
ff9a
036f
035c
f9f0
ceca
fce5
1455
0bb9
f94c
17a8
1145
fd03
00a1
2f11
f8e8
ff2b
1715
0e8f
0588
f895
16b4
fb61
fb3c
087f
ec71
0ac3
104c
f368
f50a
f81b
fd24
0918
eb5a
08d8
f958
0511
02ea
fbd4
03bc
e4e0
e18f
fd17
340f
ff9e
0276
01e7
0ab5
fcaf
edc5
36c6
2106
32de
10b6
006a
26b2
0491
103f
fd1d
2cec
01d1
f776
ce19
fb67
0339
fded
ff76
e16a
e1ec
f957
f03d
f7cf
134b
205b
22e3
f8a0
00d3
fe07
0346
09b4
f6fe
2260
0beb
fc7c
03ec
1ab2
08ca
17cb
3753
3997
2844
fc93
319f
fe70
26cb
eb48
05cf
d4ac
21ea
fbd1
f8a7
f190
0692
ed1d
f5e6
f3b5
3944
eb30
fba9
ff77
276f
07a5
fc9f
392a
027f
0215
025f
fcd8
f71f
08ba
0028
f5d2
09f9
373f
01c4
ee1d
01df
fd33
06ff
3989
1f75
fb27
fa80
fe22
017c
0562
1fb2
293d
fa33
3984
f197
02c7
cf97
f467
04cb
3970
2e92
392f
026e
399a
eab4
22b0
f4ef
2235
0254
38ac
0154
0016
38ad
f7ef
ff67
302e
3797
034f
3920
0926
0503
3998
cb39
e9f0
1252
f79e
f9c9
f55d
0686
1dec
1aa1
265f
369e
08e6
d001
3930
3948
ed44
2043
2a42
373e
38e0
38e6
07a6
0e42
386f
fd1c
3938
3882
f353
0966
cda0
f5d2
36fb
f936
f74a
38d7
126d
f368
f8c9
38a1
f7a7
fef9
2ef2
fd32
00bc
36a6
35f8
f927
fb94
fdb2
2b9e
19b0
399a
fc7f
0cff
fe1e
ff32
f9d6
3825
377b
0005
f115
fe50
041c
fd3b
369b
399a
e80b
0d4c
d692
00a9
18ec
1e49
033d
3902
37c9
3844
3926
3980
e54c
3754
fc0e
dfed
e7e8
37ee
f215
fbea
399a
0072
fe6b
398f
38c1
f150
3878
fe8b
fa0a
399a
0d6c
3271
020c
08c6
0229
0702
ff90
389c
3995
2b20
38a9
3762
3665
397e
3845
2dca
38af
355e
348c
37d3
3796
051b
387e
374e
029e
38a3
36a1
fbf6
00f8
03d9
00e1
399a
0408
f6b7
3999
399a
0718
fbe4
399a
f2f5
037f
34c2
fd85
fbbd
399c
399a
0996
fa3a
f7fe
3893
2d5e
399a
f22d
023b
fd4f
fe18
f769
38cf
399c
f29c
00ae
0433
0984
0163
399c
399b
14f6
374c
3202
0428
399a
399a
f3ef
399b
399b
398e
38e4
3999
3750
399a
0296
2921
0503
3964
0759
f1be
3937
ec65
07ca
399a
399b
1acd
397b
f5f8
fdff
3931
26ee
399b
2746
fcb7
facf
feda
ff6c
399c
399a
399b
399b
399a
399b
3964
399b
399a
399b
3999
3999
399b
399b
e97b
399c
399c
f6ea
3910
399a
ff22
fcf3
3340
f992
1337
f1a1
0f13
0fa9
3997
fd69
07c7
2716
f740
05de
2147
0257
02e7
3997
164f
f000
f723
02e9
31a4
0e8b
2f4c
ef89
0be9
f822
f8fa
fdec
3993
18b0
06e7
f602
00f1
f9e0
018c
2816
26c3
09b5
2788
f937
0bfe
11ae
2f02
ee5a
2d05
268b
3994
390c
2ece
276f
399b
fe87
2ac7
f47c
09af
0aa7
0554
2b94
0396
01d0
1cc0
3964
15ec
0ced
0e35
00b1
11f7
1d92
221b
1551
fd95
ffc2
02af
fe18
1dbd
35f9
2879
126f
2dc3
291f
1bcf
3937
ff1f
38de
ff42
0033
38df
34f8
f98b
3975
2d1f
0ada
3992
0067
03f8
08fa
2ed0
0737
dcf5
faff
f7c8
f4c4
e33e
0b7a
038d
c8f6
04f6
08da
1aa5
fb5d
009b
c7a1
d7d1
fd51
0120
08ea
01f9
f96d
c896
fbc7
167d
081a
fb70
fb8d
10e5
e075
ff4a
05e8
f3e5
02cd
0d49
c7a4
c7ba
0d75
09bc
0497
0441
f090
0a67
feb0
d2c5
2599
040b
f208
eb0a
0fb8
cb01
04d0
26c1
0937
323f
fd63
0469
e6b3
ffe4
00b8
cacd
ce80
fc16
3857
0376
fab4
2dd4
fcd1
dd21
04fc
005e
f851
03a7
0389
3580
d0ef
dc99
efd0
c6dc
c9f3
1b2a
1988
f130
c925
eaa4
e86b
e171
ed2e
f893
c7f6
116e
08b0
0356
c79e
ef01
f503
1a14
f998
0b3a
00ed
08da
17ae
0657
0133
0da0
05a3
f840
fe33
2754
f28a
0cbe
fdcf
fc04
f09b
fef9
0fdb
e70e
03cd
ed7c
fe4c
fd97
fba7
fc07
f99a
06d7
0632
014b
fd9b
f484
f857
fd91
1273
e417
016e
01eb
0b06
fcce
f00c
e52d
031f
0224
200e
097f
0ad8
14f4
f702
e1ce
0241
2f4d
f75b
27c9
00e0
04d6
e889
0b19
060a
0629
e806
ed16
2924
f852
f6f1
1629
f2e2
f334
fe2f
13c8
0ace
015c
014d
28c7
d0bc
1176
0027
f563
f174
33c4
1527
fd1a
ff1b
0861
06f4
1f7e
f27b
f9f1
fdba
076b
f96e
13df
f25e
f505
06b0
fd29
03b1
fc18
fe56
f77b
fd84
1d26
0533
04ba
0d2c
fd98
ffd2
0ae9
02b0
ff5b
138c
232e
fffc
f7b2
0b9f
ee94
f965
13f7
0319
f920
00b4
09d3
f9bc
0718
26e6
ff21
f473
fd61
fe12
fc05
2e21
01b2
083d
1a83
09b4
f2a8
0788
06e8
02bc
0376
1665
1579
fa15
fd37
f818
05e3
028e
1209
035b
fdc8
f91e
f78d
f234
023a
f1bf
16c1
0101
0dcc
16cf
0456
045e
0bc7
f538
03d7
1409
05ce
05f6
0a57
0231
16ea
0195
1bdf
0e73
0181
0264
1eaa
0c1c
f969
133e
1607
1e25
0c24
05bd
fe23
0895
0797
069c
0151
1189
fda0
02ff
0b62
fbc4
fee6
05db
f43d
0498
042a
fc7d
0ca2
fb8e
fae5
f549
f6fc
fe50
fb40
0bee
0342
f9b2
0c02
07bb
0003
07ee
0f93
02ba
fc79
00d0
0134
01ec
134b
03d7
f48e
fa74
f89c
0275
fdd1
073b
fab2
fd67
0b4e
064e
fe58
f6fc
f893
f7cb
03d4
fb14
0ed9
0f2d
03a6
fc59
ffc8
0204
06e4
fe77
10ec
fd94
ff0b
0b76
01e0
077d
fe8b
0306
02c4
0bfe
04ef
04fb
0af4
fbc5
036a
fc5f
fcc3
00db
0a81
0e37
08ca
fe8c
00ed
fb1c
fd95
f613
1275
0250
feb7
fe3a
0809
0a30
0d4c
017e
f4cb
fd85
0ca8
fc33
0691
020b
0ea3
fad6
0a80
fc09
f700
fd9c
fe3f
f9c1
02f6
fdfe
f1b6
0140
0354
f60e
fa43
fc94
04b2
fca4
03dd
fac0
05e7
0001
0197
047d
01db
03fc
ff10
0740
0845
fdd8
0753
f34e
fb47
06bf
f961
0250
ffbc
0af0
fd9c
f33a
00ef
03bf
0435
03e9
0a98
01c0
f3ab
00bf
ff00
fef0
02ce
0531
08b6
fb1d
fb07
f74e
0185
0377
feea
fa68
f852
fe5f
023f
08f5
0896
082b
022f
fbac
071f
0be0
ff44
04f7
0004
0348
f996
f700
00c7
ee67
03f6
0e2f
fa1e
f777
02ff
0d01
0034
07cd
fbc7
fe51
f7ac
03d9
f98f
f5f4
f6b4
0428
1685
f80d
fe22
fd80
05d4
06d0
050d
fd3a
f38c
05c3
038a
f37a
f7de
fdd9
fce9
f9c8
0a1d
f94e
fc80
00f5
07a6
fd03
0009
03d4
01c0
0166
0642
0298
01b6
fd55
0121
fb04
0fdd
067d
031f
fb8f
fe74
04c8
f2e6
05d0
fe9f
fa74
082e
fc17
f8cc
081c
f706
0729
0ae2
f68b
010b
056e
0ac7
ff08
0515
0529
fcab
0459
0b21
f8bc
0213
02f7
f8b9
010d
016a
00d7
ff6f
fdae
02e2
0344
0810
0183
0508
fe48
0484
fbac
03e9
fcd4
fef6
05e2
0e1d
0aca
00c6
fc52
f8b4
0482
03f2
f595
01c2
0ac0
061b
051f
f813
0b9c
fe67
fc0a
0e50
fe64
fe99
ffee
06a8
0aa8
02af
039e
ff5c
f529
0918
0513
0853
fc01
00fc
0d2c
0f7c
0086
020d
fca5
fff9
fab2
073f
fd35
00ba
064d
016f
0734
fed2
0530
f8fe
ffe2
f653
fbd5
fae3
0d64
f8aa
0d6e
0493
05ad
fd78
060d
0f88
07c4
02c1
0290
0741
011a
ff58
084c
feab
0807
0fef
08d9
00d2
feb4
08de
fa4b
0eab
fea6
00f6
03ad
1691
ff65
febd
ff5e
0610
0ccf
f8f4
fd8f
feee
fe1f
0d19
075b
09d0
fcad
f867
ffa5
fbe8
03a0
07da
f29f
0794
12eb
f819
0220
f978
fc0f
02d0
0edc
0d2c
037d
071d
f083
fd6e
fe43
04ec
feb2
f9de
f99b
05e9
01b5
fe09
067d
ff06
fd60
f90c
f17e
0123
0933
0374
1270
fe33
f711
0c63
0e47
f93f
ff97
fc9b
03c0
fbe3
06bf
083f
0dbd
fb0c
055e
0739
01ae
0dcb
0646
00fe
0ebd
faab
0847
fae0
07e3
078c
067e
08d5
fbc2
f75e
ff6e
0212
ff74
132b
02ab
f7c0
f97c
059b
fcb9
0c5b
062f
03c7
05fc
06b6
ff31
0ad8
0c25
fb2e
031b
0524
0bb5
0541
04ee
f269
fe43
ffd1
f9ce
fe17
ff77
f7f7
03e9
fb6d
fd80
06a8
f981
0b20
0776
fb36
fa57
00f4
facc
f69f
f76a
fc2e
fd0f
0559
fad4
fc3e
fd9c
fb07
0700
02e8
108c
057c
0292
0531
081e
f470
fa6e
fe70
005e
0107
f54f
029e
0172
f9c5
f7e8
0239
fcf0
05e3
051a
01ea
f610
f9d4
f353
fe96
f9b9
0b45
0478
fe13
f78c
0c83
f9ed
f139
f982
f605
05a9
f8e3
038d
0a6e
f6de
fe19
0d6d
fe8a
fe14
fdd8
fb4d
fa6b
073e
081c
fa05
0c61
0ca4
fcda
f535
f6f9
fe99
fdf0
0bea
f751
ff35
feaa
062c
fe61
fe0f
ff43
fd18
01d5
0411
f9f7
05e7
0378
ffb4
0713
08ae
fab2
fd81
00be
0b84
0325
0053
0ceb
fce6
04ac
faec
00e2
0711
fb80
fafe
ff2d
0b29
f3c9
f9dd
06e0
f152
0c19
0123
0ee1
f74b
05bc
fb7d
0177
fae0
fb99
f41b
ec5c
ff9d
105f
fdf9
fca1
0364
fb5c
fc70
f742
f991
0777
fa19
0167
fd71
f9fa
0227
05ba
f788
026b
0572
fde1
ff73
0009
0169
f82f
fc6d
02dd
fabe
ff67
ff7f
fa99
00ec
090f
fa81
fbbc
fee4
f7a3
fbd5
f5b9
f311
0252
05cd
0c08
fee3
069f
fdf5
fae9
0478
fe42
0490
0207
f93d
f85f
f8d3
fb6e
064a
ff38
09db
03c8
fec5
fa11
f263
0784
090a
fe62
0c1e
ff8e
ffd6
07e7
0016
fcda
fd84
f418
ff75
ffdd
0872
0476
fad5
0596
0208
0ada
0643
ff48
073b
fd6a
f95b
01ad
03dc
073e
ffcc
0067
0506
ff7f
0b28
f5b5
f73a
fe17
07ad
ff5d
f69d
0561
f836
08e4
0644
0a6e
08b0
0797
04f5
fddb
ff4d
0019
015f
fc46
faf0
09d6
f7e3
077b
0e1b
f8f5
09a3
ff36
0a28
fc1c
08fa
fb3d
f6f0
0c43
fa3a
f732
003e
fdd4
0841
fa02
fcfb
057b
fb04
072b
0773
0dc3
0e8e
fafe
fb0b
f9ac
ffe2
ff21
fe80
f80b
0903
f5bb
fc46
058c
0459
fe91
0698
fdb6
0dbb
0743
fad0
05f2
fe7c
02ab
087a
fa48
09bd
fe27
0795
0311
fc2e
f696
f785
020f
f878
fc93
fe4b
fb8f
fce7
0435
07c1
033c
0478
03b4
fcf6
0149
f44a
0090
fd0a
0893
f321
f896
0fcb
0518
0995
fa89
f5ed
0358
011c
03c5
0ab7
05eb
f547
fc77
f0b6
03ca
fcc7
f732
027e
f857
06fc
04f8
0f7b
fac9
069d
fce0
f7a9
0ce0
f8a5
0b70
fd8a
0505
fd0b
faa5
f9c3
fd1c
01b4
09b6
fa80
0033
fe22
ff6a
f8e9
f66f
fcc0
ffc7
10aa
0a62
fd32
f707
f428
0689
0857
0e63
fe2e
02b3
fda0
09df
066f
faa2
012c
f914
00c5
f631
015c
0843
08c2
f76a
005b
f6c0
0790
02d2
f823
f9ac
03e0
f43b
007a
0282
fb6d
fe29
00a0
0401
f759
fc1c
058d
ede9
06cb
0944
0d24
efa7
fcd2
fb84
0a0e
04a0
0719
0518
f571
02e9
f0e9
0310
0165
fec0
01a7
04f4
fa96
027c
0a17
02be
0199
ffe6
f702
09e6
fd25
0047
fdef
fd89
fbea
fb1f
0676
0976
01ad
f7ff
ff8b
0f62
022a
fea5
fa53
03ac
fe58
08e5
0787
0390
0086
03bc
0230
fe61
0937
ff5c
fc4c
f460
fe83
f560
0549
fa6a
f9a9
f050
01ea
fde7
04d9
f992
0716
051e
0b5c
fcd9
07d3
fa59
00bb
fe5e
09a1
0307
0d95
02c6
013f
ff8d
01e8
fb0a
f89f
fc54
fd85
fc79
0f29
feca
fdfe
08c2
0649
faff
05f7
0712
fa49
ff18
04fd
0652
fae7
085a
03d7
f9b7
fe60
0cc3
02c4
f2f0
f76f
0a82
ffa9
0134
f7f2
0ab2
ff3b
fbd8
ff2b
14e1
003a
029c
f617
fba8
f31e
06a5
fb4c
fce8
00e2
0288
0e4a
002d
0755
fb11
f921
fb12
ff9b
01cd
0754
0664
fc1a
020e
077e
f6c0
fb55
f732
0438
ffd8
f9f8
0388
fd88
06d6
fea5
024b
f661
0324
fd60
f447
f374
f941
056e
f152
0826
fecc
019f
0539
fa85
ffcd
fefe
fbeb
05ee
00da
053c
05f5
02c7
055c
f837
f6ee
0a11
fd61
0483
079b
028c
0599
f798
f6e5
f7fb
fbca
edf4
fd34
f32b
06e8
02ff
035e
f294
fd48
0a14
fb0f
05f1
f9da
fef0
1257
04a5
091d
ffaa
f55e
f5f0
05c0
0215
0a16
fcb4
0277
fb2f
049b
f193
0043
f9db
ff1a
0708
02af
0458
fa80
ed7d
f833
01d0
f7e6
0292
f33d
feea
093b
037c
fa1d
04b4
ff14
fbad
07cb
02a2
f26c
fb8f
0ab0
ff34
0db8
0539
0692
f476
fcb1
0a73
0983
015c
fb67
f9c8
fe1d
ff42
f935
f941
03ed
08c8
02e0
00cf
0977
f7ad
fee0
fd3f
fc5f
f95a
06ee
0419
fe65
0a9d
f5a6
feb4
f983
0b9e
fec1
0229
fd8d
079e
03cc
035e
0117
05f4
038f
044e
f61c
0875
078f
04d0
fe0e
004e
f899
fcb1
0de3
ff38
fc36
0211
ff33
f8ae
0374
fd0f
0073
084b
01ea
0960
03cd
fb72
fac9
